<pad>	0
[UNK]	0
e	-2.51267
▁	-3.35005
s	-3.90278
Service	-4.07253
O	-4.21855
l	-4.23616
r	-4.42829
er	-4.48196
T	-4.53257
▁get	-4.60861
t	-4.66751
Name	-4.8383
Form	-4.92905
n	-4.93041
Config	-4.95416
V	-4.99899
th	-5.01288
Cont	-5.0639
Token	-5.09563
Imp	-5.10471
ti	-5.17138
Id	-5.17608
y	-5.22064
es	-5.27737
Pro	-5.2796
A	-5.30567
E	-5.31479
U	-5.32794
D	-5.3301
uery	-5.33011
Authentication	-5.37175
R	-5.4486
v	-5.46156
Data	-5.50391
List	-5.50637
nt	-5.52824
S	-5.53994
C	-5.55831
or	-5.58172
per	-5.5832
Ma	-5.59486
Exception	-5.60425
Converter	-5.6051
ype	-5.6113
Co	-5.65532
User	-5.66198
Code	-5.68104
▁delete	-5.7141
Option	-5.71538
oll	-5.72262
▁update	-5.72359
ey	-5.72618
▁c	-5.72911
I	-5.73345
▁save	-5.8351
Filter	-5.84042
▁handle	-5.84052
rol	-5.87901
Time	-5.89021
▁User	-5.8962
P	-5.92903
ed	-5.93165
i	-5.95586
Pa	-5.9638
L	-5.97086
andle	-5.98304
uest	-5.9842
▁is	-5.98706
ame	-5.98837
▁send	-5.98979
p	-5.99166
vi	-5.99207
der	-5.9965
▁re	-6.00823
Page	-6.03185
u	-6.06627
Role	-6.07064
Password	-6.11416
▁role	-6.12489
▁user	-6.13219
▁config	-6.15113
▁dept	-6.15496
ob	-6.16162
▁Dept	-6.16473
▁C	-6.17116
d	-6.17211
ect	-6.20872
ent	-6.27506
g	-6.28565
un	-6.29329
Notice	-6.29672
▁Menu	-6.30756
o	-6.33274
▁field	-6.34734
xMiniAppPhone	-6.34989
Value	-6.3499
Login	-6.35053
▁login	-6.35077
Cache	-6.35248
▁Dict	-6.3614
▁getRole	-6.36561
▁log	-6.37286
Users	-6.38182
Ids	-6.39626
x	-6.42981
▁Config	-6.43021
xMiniAppCode	-6.43085
us	-6.43644
age	-6.45662
▁m	-6.46406
File	-6.46865
▁s	-6.48371
▁a	-6.49327
oper	-6.50103
N	-6.50669
▁list	-6.51923
F	-6.51932
Menu	-6.5275
▁Notice	-6.5478
le	-6.54877
ing	-6.59563
emplate	-6.59877
Client	-6.59989
▁Member	-6.59989
▁captcha	-6.59989
▁download	-6.59989
▁Product	-6.59989
▁generate	-6.59991
▁access	-6.60078
▁create	-6.60115
▁getDept	-6.60615
AuthCredentials	-6.60626
▁Order	-6.60676
In	-6.60934
▁dict	-6.61022
▁DictItem	-6.61038
M	-6.61074
▁Log	-6.62771
ip	-6.64982
ase	-6.65067
▁en	-6.65378
b	-6.65447
f	-6.65478
ment	-6.65851
▁b	-6.66076
▁getDict	-6.6699
yId	-6.67555
PA	-6.68725
▁build	-6.69326
▁My	-6.70891
▁w	-6.74585
Pr	-6.76312
oun	-6.77846
esult	-6.78087
▁Role	-6.7811
Message	-6.78421
ion	-6.80159
el	-6.81443
▁o	-6.81712
▁Captcha	-6.81876
ni	-6.82122
fo	-6.82564
▁Mail	-6.84136
ustomi	-6.85377
AM	-6.85705
al	-6.86227
Log	-6.88926
Dept	-6.89504
ls	-6.89612
enConfig	-6.90199
▁publish	-6.90978
RolePerms	-6.9218
able	-6.92574
Mobile	-6.92894
▁u	-6.93044
pdate	-6.93292
▁isShowIn	-6.93322
▁today	-6.93322
▁refresh	-6.93322
▁Security	-6.93322
▁register	-6.93322
Point	-6.93323
▁total	-6.93323
▁codegen	-6.93323
▁menu	-6.93324
Meta	-6.93326
▁process	-6.9333
▁format	-6.9334
▁column	-6.93355
Stat	-6.93366
▁notice	-6.93374
Rate	-6.93449
Email	-6.93449
Inter	-6.93482
▁getUser	-6.93495
▁getCurrentUser	-6.9355
▁page	-6.93639
App	-6.93691
row	-6.93807
OpenApiC	-6.93869
ucket	-6.94047
▁init	-6.94056
All	-6.94263
m	-6.94415
con	-6.94516
mar	-6.95724
id	-6.96099
nal	-6.96363
enFieldConfig	-6.96532
▁Sms	-6.96616
▁app	-6.96745
▁Redis	-6.97709
Open	-6.98722
▁p	-6.99415
port	-7.01377
Date	-7.01619
ag	-7.01648
inc	-7.02245
NoticePage	-7.03339
▁listMenu	-7.05746
ted	-7.05941
ecret	-7.07769
c	-7.08323
▁g	-7.09676
Re	-7.09756
ck	-7.11063
▁getDictItem	-7.12514
mmen	-7.14818
pp	-7.16118
▁res	-7.16754
ccess	-7.22731
Tree	-7.24707
▁UserNotice	-7.28894
st	-7.30342
ils	-7.33287
eng	-7.34899
tr	-7.35612
nder	-7.36392
▁updateUser	-7.36541
ort	-7.36934
Dict	-7.3707
Addr	-7.38456
Redis	-7.38764
end	-7.38858
DictItem	-7.39352
ation	-7.40664
a	-7.40848
mpl	-7.41349
fe	-7.41955
ad	-7.42333
Field	-7.4245
Route	-7.42558
▁i	-7.42787
▁add	-7.43032
▁data	-7.43159
▁do	-7.43176
▁redis	-7.4321
ataScope	-7.43254
pec	-7.43305
SystemCo	-7.43321
hildren	-7.43322
Local	-7.43322
▁target	-7.43322
▁bindOrChange	-7.43322
Active	-7.43322
Maximum	-7.43322
RefreshToken	-7.43322
affeine	-7.43322
ateLimit	-7.43322
▁SysUserDetails	-7.43322
▁convert	-7.43322
▁expire	-7.43322
▁invalid	-7.43322
▁module	-7.43322
▁recurDept	-7.43322
▁should	-7.43322
▁broadcast	-7.43322
▁dictItem	-7.43322
VisitTrend	-7.43322
usiness	-7.43322
▁character	-7.43322
▁import	-7.43322
Argument	-7.43322
NoticeDetail	-7.43322
▁browser	-7.43322
direct	-7.43322
▁Auth	-7.43322
▁execut	-7.43322
▁token	-7.43322
ybatis	-7.43323
uestParam	-7.43323
▁security	-7.43323
▁messag	-7.43323
▁revoke	-7.43323
▁sendMail	-7.43323
CodegenPreview	-7.43323
echat	-7.43323
▁UserImport	-7.43324
▁route	-7.43334
▁sendTo	-7.43335
Version	-7.43336
oot	-7.43338
▁AliyunSms	-7.4334
enerat	-7.43347
▁session	-7.4335
▁global	-7.43352
▁wxMa	-7.43354
▁has	-7.43382
Export	-7.43388
▁dataScope	-7.4339
▁region	-7.43391
ava	-7.43398
▁exc	-7.43408
▁DAT	-7.43428
▁perm	-7.43428
sTo	-7.43433
▁redisCache	-7.43438
And	-7.43462
MAT	-7.43467
cut	-7.43467
ackage	-7.43469
Permission	-7.43473
▁sendSms	-7.43474
▁code	-7.43511
▁parent	-7.43512
▁author	-7.43513
▁read	-7.43526
▁tableCo	-7.43548
▁tag	-7.4355
▁addMenu	-7.43555
▁template	-7.43583
▁deleteDictItem	-7.43607
▁getNoticeForm	-7.43622
ble	-7.43666
▁key	-7.43679
RepeatSubmit	-7.43687
▁getConfigForm	-7.43731
▁deleteDict	-7.43743
▁RolePage	-7.43746
▁result	-7.43773
▁to	-7.43814
atabase	-7.43839
▁doA	-7.43918
▁Codegen	-7.44032
▁type	-7.44033
nlineUsersChange	-7.44059
RouteV	-7.44164
▁updateMenu	-7.44174
▁getUserId	-7.44191
ound	-7.44191
ebSocketService	-7.44206
▁pv	-7.4424
▁noti	-7.44242
▁TablePage	-7.44285
yMobile	-7.44294
▁UserPage	-7.44339
▁DictPage	-7.44371
▁DictItemPage	-7.44449
▁getUserForm	-7.44688
▁gender	-7.44712
▁updateRole	-7.44733
▁open	-7.44734
enConfigForm	-7.44754
▁VisitStats	-7.44999
▁Excel	-7.45038
Cha	-7.45045
pon	-7.45142
▁getRolePerms	-7.45225
ou	-7.45307
▁LogPage	-7.45423
▁getFile	-7.45455
▁saveUser	-7.45677
▁OnlineUser	-7.45759
▁pa	-7.46217
Ex	-7.46221
▁mail	-7.46325
IP	-7.46453
configureMessage	-7.46488
Codes	-7.46642
ssign	-7.468
UserOnline	-7.47029
▁UserProfile	-7.47129
▁publisher	-7.47269
▁RoleMenu	-7.47407
sIn	-7.47542
iti	-7.47759
▁userNotice	-7.47973
ow	-7.48224
ndpoint	-7.48241
tent	-7.48482
ddress	-7.48641
enConfigService	-7.48814
ntity	-7.48958
▁NoticePage	-7.49558
oke	-7.49579
ication	-7.49622
▁isRe	-7.49745
▁ip	-7.49935
ab	-7.49982
at	-7.50221
St	-7.50275
mai	-7.50875
▁roleCode	-7.50937
▁File	-7.51266
▁getOnlineUser	-7.51499
▁se	-7.51553
▁authenticate	-7.51763
▁sta	-7.52135
▁store	-7.52377
▁validate	-7.52663
UserProfile	-7.53141
fy	-7.53269
▁date	-7.53289
ve	-7.54022
CO	-7.54242
▁UserRole	-7.54413
▁fro	-7.54835
ar	-7.56431
ram	-7.56672
ring	-7.56952
amp	-7.57162
▁custom	-7.57787
▁n	-7.58719
As	-7.59813
asswordEncoder	-7.60282
w	-7.60282
efault	-7.60997
▁roleId	-7.61091
ial	-7.61173
▁d	-7.61827
▁su	-7.6184
DE	-7.62159
De	-7.63113
app	-7.63176
▁in	-7.63914
yRole	-7.64276
▁R	-7.64816
yp	-7.65063
bs	-7.65835
in	-7.6614
Ip	-7.66261
▁D	-7.66362
MenuTree	-7.66414
aptchaValidation	-7.6658
od	-7.666
Nu	-7.67441
▁file	-7.68522
▁al	-7.68732
Access	-7.68898
is	-7.69434
tMessag	-7.69465
de	-7.71389
terRe	-7.7172
ax	-7.76071
inio	-7.76087
▁sms	-7.76139
llation	-7.78252
Ur	-7.8062
RoleService	-7.8321
▁pro	-7.8496
Se	-7.88205
ME	-7.90124
Configur	-7.92004
Sms	-7.92728
fter	-7.93513
▁pr	-7.94529
▁aliyun	-7.95648
ll	-7.9656
ol	-7.97663
set	-7.9857
▁co	-7.99829
IM	-7.99969
▁M	-8.00122
▁buildMenu	-8.00922
▁r	-8.01189
Fil	-8.01585
▁fil	-8.01668
▁getTableP	-8.01778
an	-8.03822
MenuIds	-8.05862
ry	-8.07135
ge	-8.09962
▁f	-8.12224
Profile	-8.14105
ud	-8.15662
ionD	-8.15843
La	-8.16609
▁getI	-8.16919
k	-8.17474
▁par	-8.18035
h	-8.1846
rom	-8.19532
▁validat	-8.22693
nfig	-8.23157
▁stor	-8.23218
MenuService	-8.26351
ach	-8.27578
son	-8.29663
rovi	-8.29874
ity	-8.3048
fi	-8.3244
ign	-8.32712
Online	-8.33797
▁isR	-8.34291
art	-8.35345
▁configure	-8.35641
OnlineUser	-8.35808
ho	-8.37148
ha	-8.3775
ser	-8.37853
Codegen	-8.38568
Excel	-8.39066
VisitStats	-8.39159
▁getAuth	-8.39698
mail	-8.39833
Order	-8.40061
Credentials	-8.40167
▁genderL	-8.40234
LogPage	-8.40391
Captcha	-8.40711
ce	-8.40817
not	-8.40938
ebSocket	-8.41099
penApi	-8.4113
▁setRe	-8.41135
ify	-8.41629
omp	-8.41727
Change	-8.41958
onfig	-8.42327
CurrentUser	-8.42405
obile	-8.42655
▁auth	-8.42748
nlineUsers	-8.42805
redentials	-8.42839
ail	-8.42901
hange	-8.42929
▁la	-8.43014
serDetails	-8.43053
▁confi	-8.43105
Valid	-8.43121
olumn	-8.43191
ermission	-8.43199
load	-8.43223
Noti	-8.43253
lobal	-8.43265
Validat	-8.43267
▁Aliyun	-8.43287
▁valid	-8.43294
▁form	-8.43296
urrent	-8.43296
review	-8.43319
▁publi	-8.43321
ecurityC	-8.43321
▁password	-8.43322
MailSe	-8.43324
▁webS	-8.43324
sShow	-8.43326
egion	-8.4333
ocketCon	-8.43341
word	-8.43349
Perm	-8.43363
▁Visit	-8.4337
▁table	-8.43375
▁char	-8.43382
secur	-8.43397
tar	-8.43414
cept	-8.43426
loadFile	-8.43439
gist	-8.43454
▁bind	-8.43462
Table	-8.43486
cess	-8.43502
UserDetails	-8.43597
▁da	-8.43663
DeptTree	-8.43693
▁val	-8.4373
▁mailSe	-8.43731
▁userCon	-8.43827
ack	-8.43855
Visi	-8.44076
▁saveDict	-8.44411
Ali	-8.44468
vice	-8.44482
ays	-8.44579
▁updateDict	-8.44584
min	-8.44859
lle	-8.44902
FieldConfig	-8.45093
▁fieldCo	-8.45236
MenuId	-8.45238
▁UserSe	-8.45254
Chan	-8.45534
▁inv	-8.45694
ration	-8.45795
eb	-8.45843
ind	-8.45983
ig	-8.4628
Enc	-8.46308
▁CodegenPr	-8.46423
mo	-8.46476
▁com	-8.46876
▁NoticeD	-8.47296
sign	-8.47343
veUser	-8.47355
out	-8.4736
tsT	-8.47484
Pri	-8.48181
▁userD	-8.48479
▁up	-8.48631
tFil	-8.49349
▁isS	-8.4939
▁Table	-8.49439
En	-8.49599
For	-8.49846
lSe	-8.50899
Dep	-8.51275
ui	-8.52001
ten	-8.52026
rm	-8.52148
▁ad	-8.52226
My	-8.52427
lu	-8.52556
ca	-8.52576
Si	-8.52621
▁Re	-8.52684
▁ke	-8.53532
ener	-8.5362
sion	-8.53801
▁de	-8.53959
▁met	-8.54096
Ent	-8.54131
▁ex	-8.54609
Sy	-8.54885
enti	-8.55536
ay	-8.56332
for	-8.56641
isi	-8.59077
ments	-8.60766
▁end	-8.61176
xt	-8.62159
▁getCode	-8.62373
xMiniApp	-8.62834
▁getD	-8.62924
lic	-8.62978
red	-8.63342
▁getS	-8.64316
cr	-8.64325
ache	-8.64349
ron	-8.65022
et	-8.65393
▁getR	-8.66335
lab	-8.66797
ePa	-8.68632
nP	-8.69368
▁con	-8.70609
Al	-8.70662
▁k	-8.71508
ender	-8.71939
Po	-8.7228
gin	-8.73569
onPro	-8.7442
edi	-8.755
TE	-8.76341
▁set	-8.76692
ds	-8.79936
che	-8.82205
ter	-8.82211
▁Password	-8.82228
▁mai	-8.8462
ommen	-8.86769
ssion	-8.89547
ut	-8.90191
wt	-8.90407
uthentication	-8.91935
▁MailCon	-8.92622
▁me	-8.93376
ate	-8.95306
Fo	-8.95436
Ver	-8.95867
▁L	-8.97094
▁h	-8.97353
ateU	-8.97592
edU	-8.97677
▁getTa	-9.00394
ro	-9.05678
TablePage	-9.06273
ew	-9.06622
ys	-9.07683
se	-9.08996
ep	-9.13742
▁e	-9.14345
▁ti	-9.145
ri	-9.23272
eRe	-9.2582
ss	-9.25919
liyunSms	-9.2669
yA	-9.30016
rl	-9.31478
