<pad>	0
[UNK]	0
er	-0
en	-1
on	-2
ic	-3
at	-4
ge	-5
le	-6
ice	-7
ser	-8
es	-9
ro	-10
or	-11
Con	-12
get	-13
in	-14
▁get	-15
fi	-16
is	-17
User	-18
ti	-19
re	-20
vice	-21
Ser	-22
Service	-23
de	-24
fig	-25
▁s	-26
ate	-27
▁c	-28
ent	-29
Co	-30
te	-31
al	-32
Config	-33
age	-34
me	-35
Ro	-36
il	-37
th	-38
ict	-39
ion	-40
ot	-41
pt	-42
ha	-43
mp	-44
orm	-45
ter	-46
▁u	-47
Role	-48
Id	-49
▁p	-50
Dict	-51
Pro	-52
ame	-53
enu	-54
ess	-55
Form	-56
otice	-57
De	-58
uth	-59
Page	-60
ec	-61
og	-62
end	-63
▁re	-64
Menu	-65
ok	-66
pp	-67
ler	-68
mpl	-69
Notice	-70
Ma	-71
▁d	-72
Code	-73
tion	-74
ation	-75
ms	-76
▁a	-77
date	-78
el	-79
ta	-80
▁de	-81
oken	-82
it	-83
nd	-84
▁l	-85
ata	-86
Auth	-87
Name	-88
▁User	-89
Re	-90
VO	-91
as	-92
pe	-93
ist	-94
Cont	-95
Token	-96
pdate	-97
ption	-98
un	-99
Impl	-100
ServiceImpl	-101
Ex	-102
id	-103
ile	-104
rol	-105
roller	-106
Controller	-107
▁b	-108
Dept	-109
entic	-110
▁update	-111
ob	-112
ve	-113
▁m	-114
Ite	-115
Log	-116
gen	-117
Ca	-118
nl	-119
ur	-120
▁t	-121
App	-122
ble	-123
ine	-124
ini	-125
▁is	-126
Data	-127
lete	-128
ties	-129
entication	-130
ce	-131
et	-132
ey	-133
ery	-134
per	-135
unt	-136
Item	-137
uery	-138
▁con	-139
▁Dict	-140
▁send	-141
▁delete	-142
Authentication	-143
In	-144
ad	-145
ar	-146
us	-147
eld	-148
ver	-149
ype	-150
▁co	-151
▁ro	-152
Mini	-153
cess	-154
Count	-155
perties	-156
ck	-157
ul	-158
ave	-159
ord	-160
ort	-161
res	-162
List	-163
word	-164
xMini	-165
▁save	-166
▁user	-167
xMiniApp	-168
Properties	-169
ch	-170
▁M	-171
Fil	-172
Ids	-173
Onl	-174
ass	-175
cha	-176
ues	-177
▁ha	-178
Exce	-179
File	-180
Type	-181
▁log	-182
ptcha	-183
▁role	-184
Conver	-185
Online	-186
assword	-187
Converter	-188
Exception	-189
ag	-190
od	-191
ow	-192
ub	-193
um	-194
▁S	-195
▁e	-196
Val	-197
ath	-198
dis	-199
pen	-200
red	-201
▁fi	-202
able	-203
uest	-204
Users	-205
▁Role	-206
Option	-207
▁Notice	-208
▁config	-209
Al	-210
Or	-211
St	-212
Ti	-213
dd	-214
▁f	-215
▁n	-216
Per	-217
che	-218
ult	-219
Path	-220
Time	-221
enti	-222
ndle	-223
ccess	-224
Filter	-225
PageVO	-226
▁handle	-227
Password	-228
▁getUser	-229
DT	-230
om	-231
ys	-232
▁w	-233
Cha	-234
DTO	-235
Vis	-236
ail	-237
and	-238
ild	-239
ity	-240
val	-241
vid	-242
▁ex	-243
▁in	-244
▁ta	-245
Mail	-246
Mess	-247
cket	-248
ment	-249
Cache	-250
vider	-251
▁list	-252
andler	-253
Options	-254
Provider	-255
▁getDict	-256
▁getRole	-257
AT	-258
En	-259
Fi	-260
eb	-261
ip	-262
ls	-263
pi	-264
ut	-265
▁g	-266
▁o	-267
Man	-268
Sms	-269
als	-270
ase	-271
ing	-272
nge	-273
oad	-274
ree	-275
ubl	-276
▁Ca	-277
▁bu	-278
▁ca	-279
Deta	-280
Mapp	-281
Open	-282
Stat	-283
ager	-284
ecur	-285
name	-286
sion	-287
▁Log	-288
▁gen	-289
Field	-290
Table	-291
Visit	-292
ender	-293
obile	-294
▁Dept	-295
▁Menu	-296
▁auth	-297
▁dept	-298
▁dict	-299
▁publ	-300
Detail	-301
Mapper	-302
▁field	-303
Codegen	-304
Manager	-305
Message	-306
ecurity	-307
entials	-308
▁Config	-309
enConfig	-310
▁DictItem	-311
redentials	-312
Ph	-313
ct	-314
ig	-315
im	-316
iy	-317
ue	-318
▁C	-319
▁D	-320
Ord	-321
ect	-322
int	-323
ish	-324
one	-325
row	-326
tom	-327
urr	-328
ute	-329
▁My	-330
▁Re	-331
Tree	-332
ator	-333
file	-334
fres	-335
iyun	-336
oint	-337
▁add	-338
▁pro	-339
▁reg	-340
▁res	-341
▁val	-342
Login	-343
Order	-344
Perms	-345
Phone	-346
fresh	-347
ustom	-348
▁code	-349
▁data	-350
Change	-351
mplate	-352
urrent	-353
▁build	-354
▁login	-355
Profile	-356
▁Captcha	-357
▁publish	-358
Credentials	-359
xMiniAppCode	-360
xMiniAppPhone	-361
AM	-362
Cl	-363
Me	-364
Sc	-365
Sh	-366
Te	-367
To	-368
du	-369
ed	-370
em	-371
ew	-372
fe	-373
vi	-374
▁k	-375
Api	-376
Cli	-377
Res	-378
Sco	-379
Uti	-380
ber	-381
cel	-382
ebS	-383
ign	-384
ind	-385
lum	-386
ore	-387
ted	-388
▁al	-389
▁en	-390
▁st	-391
Rate	-392
Show	-393
duct	-394
lumn	-395
mail	-396
ownl	-397
yIds	-398
▁Mem	-399
▁Pro	-400
▁cha	-401
▁cre	-402
▁par	-403
Scope	-404
Utils	-405
Valid	-406
Value	-407
erate	-408
mport	-409
ocket	-410
▁Mail	-411
▁form	-412
Client	-413
Mobile	-414
Result	-415
vCount	-416
▁Order	-417
▁Visit	-418
▁downl	-419
▁redis	-420
Details	-421
▁Member	-422
▁access	-423
▁create	-424
FormData	-425
Template	-426
▁Codegen	-427
▁Product	-428
▁captcha	-429
▁getAuth	-430
▁getDept	-431
▁download	-432
▁generate	-433
OnlineUser	-434
urrentUser	-435
▁getNotice	-436
FieldConfig	-437
As	-438
La	-439
Lo	-440
Ur	-441
ay	-442
fo	-443
fy	-444
ho	-445
ra	-446
ry	-447
xl	-448
▁i	-449
Add	-450
All	-451
Cod	-452
Com	-453
Enc	-454
Pre	-455
Sec	-456
Sub	-457
Ver	-458
ack	-459
ain	-460
ast	-461
bel	-462
hat	-463
lob	-464
mis	-465
mit	-466
nal	-467
oke	-468
ont	-469
oti	-470
ret	-471
ure	-472
▁Al	-473
▁do	-474
▁te	-475
Addr	-476
Date	-477
Info	-478
Meta	-479
ener	-480
oday	-481
otal	-482
peat	-483
port	-484
view	-485
voke	-486
▁Sms	-487
▁Sys	-488
▁app	-489
▁per	-490
▁set	-491
Codes	-492
Email	-493
Excel	-494
Inter	-495
Point	-496
Stats	-497
idate	-498
ister	-499
lobal	-500
rowth	-501
▁bind	-502
▁getC	-503
▁mail	-504
▁menu	-505
▁open	-506
▁page	-507
Custom	-508
OpenId	-509
ShowIn	-510
Status	-511
Submit	-512
Update	-513
ession	-514
▁Redis	-515
▁Table	-516
▁table	-517
▁today	-518
▁total	-519
Comment	-520
Customi	-521
OpenApi	-522
Preview	-523
iyunSms	-524
mission	-525
▁column	-526
▁format	-527
▁gender	-528
▁notice	-529
DictItem	-530
TreePath	-531
ebSocket	-532
▁codegen	-533
▁process	-534
▁refresh	-535
rowthRate	-536
▁Security	-537
▁isShowIn	-538
▁listMenu	-539
▁register	-540
UpdateForm	-541
peatSubmit	-542
▁configure	-543
FileService	-544
OnlineUsers	-545
UserDetails	-546
▁UserNotice	-547
▁updateUser	-548
▁getCurrentUser	-549
AP	-550
AR	-551
Ac	-552
Ar	-553
CO	-554
ER	-555
Ev	-556
IM	-557
IP	-558
Ip	-559
Ob	-560
Pr	-561
TC	-562
Tr	-563
an	-564
fa	-565
ll	-566
mm	-567
ni	-568
nn	-569
ol	-570
ou	-571
se	-572
ss	-573
ty	-574
AME	-575
And	-576
Arg	-577
Asp	-578
Len	-579
Lim	-580
Loc	-581
MAT	-582
Max	-583
PAR	-584
PAT	-585
Par	-586
Reg	-587
adc	-588
ams	-589
ays	-590
bat	-591
cip	-592
cur	-593
ecu	-594
ffe	-595
gth	-596
ire	-597
mes	-598
nec	-599
odu	-600
ori	-601
rac	-602
ren	-603
rom	-604
ryp	-605
sTo	-606
son	-607
tem	-608
ten	-609
uld	-610
xMa	-611
▁ch	-612
▁ip	-613
▁me	-614
▁pv	-615
▁su	-616
▁ti	-617
▁to	-618
APTC	-619
Acti	-620
Fill	-621
NAME	-622
Rout	-623
Urls	-624
ates	-625
base	-626
fter	-627
ible	-628
imum	-629
nife	-630
oder	-631
rget	-632
ring	-633
thod	-634
usin	-635
vert	-636
▁DAT	-637
▁bro	-638
▁doA	-639
▁end	-640
▁has	-641
▁key	-642
▁sho	-643
▁sms	-644
▁tag	-645
Argum	-646
Event	-647
Items	-648
Label	-649
Local	-650
PARAM	-651
Redis	-652
Roles	-653
Route	-654
Trend	-655
abled	-656
aging	-657
batis	-658
cipal	-659
echat	-660
fault	-661
odule	-662
omain	-663
otify	-664
point	-665
ucket	-666
yRole	-667
yUser	-668
▁Auth	-669
▁File	-670
▁brow	-671
▁expi	-672
▁file	-673
▁getS	-674
▁init	-675
▁isRe	-676
▁mess	-677
▁read	-678
▁type	-679
▁wxMa	-680
Access	-681
Active	-682
Aspect	-683
Export	-684
Import	-685
Length	-686
Routes	-687
Secret	-688
Sender	-689
ackage	-690
adcast	-691
endApp	-692
ffeine	-693
ildren	-694
nected	-695
racter	-696
rypted	-697
▁CAPTC	-698
▁Excel	-699
▁inval	-700
▁recur	-701
▁route	-702
▁store	-703
▁token	-704
▁valid	-705
Configs	-706
Content	-707
Encoder	-708
Maximum	-709
PvCount	-710
Refresh	-711
UvCount	-712
Version	-713
ication	-714
incipal	-715
llation	-716
orities	-717
uestPar	-718
usiness	-719
yMobile	-720
▁bindOr	-721
▁custom	-722
▁global	-723
▁import	-724
▁module	-725
▁notify	-726
▁parent	-727
▁region	-728
▁result	-729
▁revoke	-730
▁sendTo	-731
▁should	-732
▁target	-733
Argument	-734
FileName	-735
Internal	-736
LoginDTO	-737
MetaData	-738
enerator	-739
enticate	-740
▁addMenu	-741
▁browser	-742
▁convert	-743
▁sendSms	-744
▁session	-745
DataScope	-746
RolePerms	-747
yUsername	-748
▁Password	-749
▁RoleMenu	-750
▁UserRole	-751
▁dictItem	-752
▁getTable	-753
▁getVisit	-754
▁password	-755
▁saveUser	-756
▁security	-757
▁sendMail	-758
▁validate	-759
Permission	-760
Validation	-761
endAppName	-762
ryptedData	-763
▁AliyunSms	-764
▁broadcast	-765
▁buildMenu	-766
▁character	-767
▁dataScope	-768
▁getConfig	-769
▁getUserId	-770
▁publisher	-771
▁recurDept	-772
CacheConfig	-773
PreviewData	-774
▁OnlineUser	-775
▁UserImport	-776
▁VisitStats	-777
▁deleteDict	-778
▁updateMenu	-779
▁updateRole	-780
▁userNotice	-781
RefreshToken	-782
TokenManager	-783
▁UserProfile	-784
▁getDictItem	-785
OnlineService	-786
agingTemplate	-787
enFieldConfig	-788
▁authenticate	-789
▁bindOrChange	-790
▁getRolePerms	-791
OpenApiCustomi	-792
RolePermsCache	-793
OnlineUserCount	-794
▁SysUserDetails	-795
Ab	-796
Ag	-797
At	-798
CE	-799
AU	-800
DE	-801
EF	-802
ES	-803
Er	-804
FI	-805
FO	-806
ID	-807
IN	-808
IT	-809
If	-810
Il	-811
Iv	-812
LO	-813
LS	-814
LT	-815
Mv	-816
My	-817
OU	-818
Pl	-819
RE	-820
Se	-821
Si	-822
Su	-823
ao	-824
av	-825
ax	-826
dm	-827
ds	-828
ee	-829
ef	-830
he	-831
ht	-832
ld	-833
lu	-834
ns	-835
pl	-836
rl	-837
rm	-838
rs	-839
rt	-840
st	-841
ud	-842
ui	-843
xt	-844
yA	-845
yn	-846
▁r	-847
▁v	-848
Ali	-849
Alp	-850
Ass	-851
CON	-852
Cut	-853
Den	-854
Dep	-855
Dic	-856
Dis	-857
EST	-858
Ent	-859
FOR	-860
For	-861
IME	-862
Inb	-863
LIM	-864
Lai	-865
Mvc	-866
Nul	-867
Num	-868
OUR	-869
Oss	-870
Pol	-871
Row	-872
Seg	-873
Set	-874
Sto	-875
TER	-876
Tag	-877
UID	-878
Uri	-879
adS	-880
ali	-881
amp	-882
anP	-883
ari	-884
ark	-885
art	-886
ary	-887
ava	-888
clu	-889
con	-890
cut	-891
dit	-892
ean	-893
ear	-894
ebs	-895
eep	-896
ere	-897
gal	-898
ial	-899
Ch	-900
Na	-901
Vo	-902
mo	-903
wt	-904
▁x	-905
Abs	-906
End	-907
eck	-908
ick	-909
ied	-910
ify	-911
ise	-912
ith	-913
ker	-914
low	-915
msg	-916
obS	-917
onl	-918
oot	-919
ors	-920
out	-921
pec	-922
pon	-923
ron	-924
ror	-925
rou	-926
sIn	-927
tax	-928
tle	-929
vel	-930
vin	-931
▁Co	-932
▁IP	-933
▁LO	-934
▁av	-935
▁fa	-936
▁fr	-937
▁he	-938
▁ho	-939
▁ic	-940
▁id	-941
▁iv	-942
▁la	-943
▁le	-944
▁my	-945
▁ob	-946
▁os	-947
▁pr	-948
▁sc	-949
▁sp	-950
▁ts	-951
▁uv	-952
AULT	-953
AllA	-954
Appl	-955
Atta	-956
CODE	-957
Days	-958
Enti	-959
Exec	-960
Font	-961
From	-962
Ille	-963
LSyn	-964
Limi	-965
Lock	-966
MATC	-967
Noti	-968
Null	-969
Perm	-970
Plus	-971
Prim	-972
Root	-973
SOUR	-974
Sing	-975
Sort	-976
Spec	-977
TIME	-978
UEST	-979
atar	-980
atus	-981
cept	-982
cher	-983
dmin	-984
ence	-985
eyId	-986
fere	-987
firm	-988
gine	-989
idth	-990
ight	-991
iled	-992
inio	-993
irec	-994
istr	-995
lSeg	-996
leDe	-997
lter	-998
mark	-999
icy	-1000
dire	-1001
fier	-1002
mmar	-1003
mpon	-1004
nnel	-1005
nnot	-1006
olve	-1007
onds	-1008
orts	-1009
ound	-1010
ress	-1011
rset	-1012
sert	-1013
tamp	-1014
tart	-1015
tent	-1016
ters	-1017
udge	-1018
ured	-1019
utor	-1020
ways	-1021
ySms	-1022
ysed	-1023
▁DEF	-1024
▁ass	-1025
▁bef	-1026
▁dao	-1027
▁enc	-1028
▁ign	-1029
▁ini	-1030
▁max	-1031
▁msg	-1032
▁new	-1033
▁old	-1034
▁onl	-1035
▁sec	-1036
▁ser	-1037
▁uns	-1038
▁upl	-1039
▁url	-1040
▁vis	-1041
▁xxl	-1042
Agent	-1043
Alive	-1044
Alpha	-1045
CONFI	-1046
Chain	-1047
Entry	-1048
Error	-1049
Exten	-1050
IfAbs	-1051
LIMIT	-1052
Limit	-1053
Minio	-1054
Names	-1055
Notif	-1056
Reten	-1057
Stomp	-1058
ample	-1059
aries	-1060
aseVO	-1061
clude	-1062
ebMvc	-1063
eckIp	-1064
ecute	-1065
edVal	-1066
esses	-1067
igned	-1068
leted	-1069
ments	-1070
orage	-1071
oreRe	-1072
ouLai	-1073
ponse	-1074
reSec	-1075
resIn	-1076
roker	-1077
round	-1078
sToSt	-1079
tiali	-1080
uired	-1081
vince	-1082
viron	-1083
words	-1084
ystem	-1085
▁Chat	-1086
▁Cors	-1087
▁DATA	-1088
▁DATE	-1089
▁Date	-1090
▁Page	-1091
▁Rate	-1092
▁back	-1093
▁city	-1094
▁comm	-1095
▁date	-1096
▁demo	-1097
▁edit	-1098
▁enti	-1099
▁font	-1100
▁from	-1101
▁host	-1102
▁icon	-1103
▁isDe	-1104
▁isEn	-1105
▁isSu	-1106
▁keep	-1107
▁last	-1108
▁load	-1109
▁main	-1110
▁meta	-1111
▁name	-1112
▁nick	-1113
▁oper	-1114
▁path	-1115
▁perm	-1116
▁port	-1117
▁rate	-1118
▁sear	-1119
▁sign	-1120
▁sort	-1121
▁supp	-1122
▁text	-1123
▁tree	-1124
▁webS	-1125
Attach	-1126
Denied	-1127
Depart	-1128
Discon	-1129
Domain	-1130
Entity	-1131
FORMAT	-1132
Format	-1133
FromRe	-1134
IpAddr	-1135
MenuId	-1136
MetaOb	-1137
Method	-1138
Policy	-1139
Region	-1140
SOURCE	-1141
Tables	-1142
Verify	-1143
ceptor	-1144
direct	-1145
ecured	-1146
fterRe	-1147
ipCode	-1148
obExec	-1149
points	-1150
rammar	-1151
sonPro	-1152
tyName	-1153
yAnnot	-1154
▁Email	-1155
▁Field	-1156
▁Local	-1157
▁Minio	-1158
▁Route	-1159
▁Token	-1160
▁UserS	-1161
▁admin	-1162
▁allow	-1163
▁appId	-1164
▁cache	-1165
▁count	-1166
▁dates	-1167
▁direc	-1168
▁email	-1169
▁excel	-1170
▁execu	-1171
▁front	-1172
▁getCa	-1173
▁getIv	-1174
▁getMy	-1175
▁getPr	-1176
▁inter	-1177
▁knife	-1178
▁label	-1179
▁level	-1180
▁minio	-1181
▁parse	-1182
▁perms	-1183
▁reset	-1184
▁roles	-1185
▁scanP	-1186
▁setRe	-1187
▁start	-1188
▁templ	-1189
▁times	-1190
▁title	-1191
▁value	-1192
▁width	-1193
AllAnal	-1194
Channel	-1195
Default	-1196
Diction	-1197
Illegal	-1198
Inbound	-1199
LSyntax	-1200
Limiter	-1201
LogPage	-1202
MenuIds	-1203
MenusTo	-1204
Notices	-1205
Primary	-1206
Registr	-1207
RouteVo	-1208
SetName	-1209
TrendVO	-1210
UserIds	-1211
Visible	-1212
ageList	-1213
ameters	-1214
asePage	-1215
avaMail	-1216
cessing	-1217
eyValue	-1218
idCount	-1219
iyunOss	-1220
mponent	-1221
oadFile	-1222
ootAppl	-1223
oreUrls	-1224
sActive	-1225
temCode	-1226
uestLog	-1227
uestUri	-1228
uration	-1229
yOpenId	-1230
yRoleId	-1231
▁Aliyun	-1232
▁Column	-1233
▁DeptVO	-1234
▁MenuVO	-1235
▁Mobile	-1236
▁MyData	-1237
▁Option	-1238
▁Result	-1239
▁always	-1240
▁assign	-1241
▁author	-1242
▁avatar	-1243
▁bucket	-1244
▁change	-1245
▁deptId	-1246
▁domain	-1247
▁engine	-1248
▁export	-1249
▁failed	-1250
▁filter	-1251
▁getEnc	-1252
▁getTag	-1253
▁hasAss	-1254
▁height	-1255
▁insert	-1256
▁invoke	-1257
▁ipList	-1258
▁isNull	-1259
▁isRead	-1260
▁isRoot	-1261
▁isUser	-1262
▁logout	-1263
▁menuId	-1264
▁method	-1265
▁mobile	-1266
▁online	-1267
▁openId	-1268
▁openid	-1269
▁pageSi	-1270
▁params	-1271
▁public	-1272
▁pvList	-1273
▁remark	-1274
▁roleId	-1275
▁secret	-1276
▁sender	-1277
▁serial	-1278
▁spring	-1279
▁status	-1280
▁toData	-1281
▁tsType	-1282
▁userId	-1283
Children	-1284
DateTime	-1285
DetailVO	-1286
FilePath	-1287
FilterOb	-1288
IfAbsent	-1289
Listener	-1290
MenuForm	-1291
OptionVO	-1292
PointCut	-1293
Pointcut	-1294
SingleDe	-1295
StompEnd	-1296
TokensIn	-1297
ebsocket	-1298
edValues	-1299
entifier	-1300
eySecret	-1301
lSegment	-1302
obConfig	-1303
obSample	-1304
olveUser	-1305
tionDays	-1306
tionTime	-1307
ueryType	-1308
▁DEFAULT	-1309
▁IPUtils	-1310
▁LogPage	-1311
▁Mybatis	-1312
▁OpenApi	-1313
▁RouteVO	-1314
▁addRole	-1315
▁address	-1316
▁afterRe	-1317
▁appname	-1318
▁charset	-1319
▁checkIp	-1320
▁confirm	-1321
▁content	-1322
▁current	-1323
▁default	-1324
▁doAfter	-1325
▁enabled	-1326
▁endDate	-1327
▁environ	-1328
▁exclude	-1329
▁execute	-1330
▁getCode	-1331
▁hasPerm	-1332
▁isValid	-1333
▁logPath	-1334
▁mybatis	-1335
▁openApi	-1336
▁package	-1337
▁pageNum	-1338
▁readAll	-1339
▁roleIds	-1340
▁saveLog	-1341
▁setMess	-1342
▁storage	-1343
▁success	-1344
▁tableCo	-1345
▁tagType	-1346
▁userCon	-1347
▁visible	-1348
Addresses	-1349
AndOpenId	-1350
DictEvent	-1351
EmailCode	-1352
ExportDTO	-1353
Extension	-1354
FORMATTER	-1355
FormCache	-1356
LocalAddr	-1357
LoginCode	-1358
PlusInter	-1359
PreviewVO	-1360
Validator	-1361
aseEntity	-1362
echatUser	-1363
ectMapper	-1364
essionDTO	-1365
fereCount	-1366
ithAttach	-1367
reSeconds	-1368
sToString	-1369
sonClient	-1370
viceLogin	-1371
▁Caffeine	-1372
▁ConfigVO	-1373
▁DeptForm	-1374
▁DictForm	-1375
▁DictPage	-1376
▁FileInfo	-1377
▁MenuForm	-1378
▁MyAccess	-1379
▁MyMetaOb	-1380
▁RoleForm	-1381
▁RolePage	-1382
▁UserAuth	-1383
▁UserForm	-1384
▁UserPage	-1385
▁addOrder	-1386
▁beforeRe	-1387
▁bindUser	-1388
▁business	-1389
▁caffeine	-1390
▁children	-1391
▁commence	-1392
▁configId	-1393
▁dataType	-1394
▁database	-1395
▁deptCode	-1396
▁deptList	-1397
▁deptName	-1398
▁dictCode	-1399
▁dictType	-1400
▁doAround	-1401
▁doFilter	-1402
▁endpoint	-1403
▁fileName	-1404
▁formType	-1405
▁getRoles	-1406
▁getToken	-1407
▁handleRe	-1408
▁initiali	-1409
▁isConfig	-1410
▁keywords	-1411
▁listDept	-1412
▁listRole	-1413
▁listUser	-1414
▁loadUser	-1415
▁logReten	-1416
▁nickname	-1417
▁noticeId	-1418
▁operator	-1419
▁parentId	-1420
▁processS	-1421
▁province	-1422
▁readTime	-1423
▁redirect	-1424
▁regionId	-1425
▁response	-1426
▁roleCode	-1427
▁roleList	-1428
▁roleMenu	-1429
▁saveDept	-1430
▁saveDict	-1431
▁saveMenu	-1432
▁saveRole	-1433
▁searcher	-1434
▁setRedis	-1435
▁signName	-1436
▁supports	-1437
▁template	-1438
▁treePath	-1439
▁userRole	-1440
▁username	-1441
ActiveTime	-1442
Converters	-1443
DictChange	-1444
EntryPoint	-1445
ForCodegen	-1446
MobileCode	-1447
NoticePage	-1448
VerifyCode	-1449
VersionUID	-1450
baseFormat	-1451
ecuredUrls	-1452
enderValue	-1453
idateToken	-1454
ignedUsers	-1455
obExecutor	-1456
uestMethod	-1457
uestParams	-1458
yRoleCodes	-1459
▁DateUtils	-1460
▁DictEvent	-1461
▁LogAspect	-1462
▁LogPageVO	-1463
▁NoticeDTO	-1464
▁RolePerms	-1465
▁TablePage	-1466
▁aliyunOss	-1467
▁aliyunSms	-1468
▁appSecret	-1469
▁buildLock	-1470
▁collation	-1471
▁component	-1472
▁customise	-1473
▁direction	-1474
▁expiresIn	-1475
▁fieldName	-1476
▁fieldSort	-1477
▁fieldType	-1478
▁genConfig	-1479
▁getDeptId	-1480
▁getIpAddr	-1481
▁getRegion	-1482
▁getSystem	-1483
▁isDeleted	-1484
▁isEnabled	-1485
▁isPrimary	-1486
▁isSuccess	-1487
▁keepAlive	-1488
▁listMenus	-1489
▁maxLength	-1490
▁principal	-1491
▁rateLimit	-1492
▁roleCodes	-1493
▁roleNames	-1494
▁routeName	-1495
▁routePath	-1496
▁sendLogin	-1497
▁sendNotif	-1498
▁sendToAll	-1499
▁shouldLog	-1500
▁startDate	-1501
▁tableName	-1502
▁templates	-1503
▁textAlpha	-1504
▁timestamp	-1505
▁toRouteVo	-1506
▁tokenType	-1507
▁typeLabel	-1508
▁validator	-1509
▁webSocket	-1510
AccessToken	-1511
AllAnalysed	-1512
Departments	-1513
ExportUsers	-1514
FilterChain	-1515
MenusToRole	-1516
TreeOptions	-1517
ebMvcConfig	-1518
ucketPolicy	-1519
yAnnotation	-1520
▁ConfigForm	-1521
▁ConfigPage	-1522
▁CorsConfig	-1523
▁DictPageVO	-1524
▁ExcelUtils	-1525
▁MailConfig	-1526
▁NoticeForm	-1527
▁NoticePage	-1528
▁PageResult	-1529
▁Permission	-1530
▁RolePageVO	-1531
▁SystemCode	-1532
▁UserPageVO	-1533
▁VisitCount	-1534
▁alwaysShow	-1535
▁bucketName	-1536
▁columnName	-1537
▁columnType	-1538
▁configName	-1539
▁createTime	-1540
▁currentRow	-1541
▁deleteFile	-1542
▁deleteMenu	-1543
▁entityName	-1544
▁genderList	-1545
▁getCaptcha	-1546
▁getCodegen	-1547
▁getLogPage	-1548
▁getMaximum	-1549
▁getRoleIds	-1550
▁growthRate	-1551
▁ignoreUrls	-1552
▁insertFill	-1553
▁isNullable	-1554
▁logService	-1555
▁mailSender	-1556
▁moduleName	-1557
▁parseToken	-1558
▁permission	-1559
▁properties	-1560
▁redisCache	-1561
▁registerOr	-1562
▁resultCode	-1563
▁revokeTime	-1564
▁saveNotice	-1565
▁sendToUser	-1566
▁sessionIds	-1567
▁smsService	-1568
▁targetType	-1569
▁todayCount	-1570
▁totalCount	-1571
▁updateDept	-1572
▁updateDict	-1573
▁updateFill	-1574
▁updateTime	-1575
▁uploadFile	-1576
▁userDiscon	-1577
▁validCount	-1578
▁wxMaConfig	-1579
DeptTreePath	-1580
Dictionaries	-1581
LSyntaxError	-1582
MenuTreePath	-1583
Registration	-1584
enConfigForm	-1585
▁CaptchaInfo	-1586
▁ChatMessage	-1587
▁CurrentUser	-1588
▁ExcelResult	-1589
▁OrderMapper	-1590
▁RateLimiter	-1591
▁RedisConfig	-1592
▁TablePageVO	-1593
▁accessToken	-1594
▁authService	-1595
▁authorities	-1596
▁buildRoutes	-1597
▁captchaFont	-1598
▁configValue	-1599
▁credentials	-1600
▁deleteRoles	-1601
▁deleteUsers	-1602
▁deptService	-1603
▁dictService	-1604
▁environment	-1605
▁excelResult	-1606
▁exportUsers	-1607
▁fileService	-1608
▁formatToken	-1609
▁genderLabel	-1610
▁generateAnd	-1611
▁getDeptForm	-1612
▁getDeptList	-1613
▁getDictForm	-1614
▁getDictList	-1615
▁getDictPage	-1616
▁getFileName	-1617
▁getFilePath	-1618
▁getMenuForm	-1619
▁getPassword	-1620
▁getRoleForm	-1621
▁getRolePage	-1622
▁getUserForm	-1623
▁getUserPage	-1624
▁getUsername	-1625
▁importExcel	-1626
▁importUsers	-1627
▁listMenuIds	-1628
▁logPointcut	-1629
▁mailService	-1630
▁menuService	-1631
▁messageList	-1632
▁minioClient	-1633
▁newPassword	-1634
▁oldPassword	-1635
▁onlineUsers	-1636
▁packageName	-1637
▁publishTime	-1638
▁publisherId	-1639
▁resolveUser	-1640
▁roleService	-1641
▁scanPackage	-1642
▁storagePath	-1643
▁userDetails	-1644
▁userService	-1645
▁webSecurity	-1646
▁wxMaService	-1647
ClientInbound	-1648
DateTimeField	-1649
EncoderConfig	-1650
MaximumLength	-1651
TokensInRedis	-1652
avaMailSender	-1653
ithAttachment	-1654
sonProcessing	-1655
ucketIfAbsent	-1656
uestLogFilter	-1657
▁DictItemForm	-1658
▁DictItemPage	-1659
▁MemberMapper	-1660
▁NoticePageVO	-1661
▁OrderService	-1662
▁RepeatSubmit	-1663
▁VisitStatsVO	-1664
▁VisitTrendVO	-1665
▁businessName	-1666
▁cacheManager	-1667
▁caffeineSpec	-1668
▁customDomain	-1669
▁downloadCode	-1670
▁fieldComment	-1671
▁fieldConfigs	-1672
▁getDataScope	-1673
▁getDictCodes	-1674
▁getDictItems	-1675
▁getLocalAddr	-1676
▁getPrincipal	-1677
▁getTablePage	-1678
▁globalConfig	-1679
▁invalidCount	-1680
▁isConfigured	-1681
▁isShowInForm	-1682
▁isShowInList	-1683
▁isUserOnline	-1684
▁parentMenuId	-1685
▁refreshCache	-1686
▁refreshToken	-1687
▁registerUser	-1688
▁repeatSubmit	-1689
▁revokeNotice	-1690
▁saveDictItem	-1691
▁tableComment	-1692
▁todayPvCount	-1693
▁todayUvCount	-1694
▁tokenManager	-1695
▁totalPvCount	-1696
▁totalUvCount	-1697
▁updateNotice	-1698
ChangeInternal	-1699
ProfilesActive	-1700
StompEndpoints	-1701
ebSocketConfig	-1702
lobalException	-1703
ootApplication	-1704
uestParameters	-1705
wtTokenManager	-1706
xMiniAppConfig	-1707
▁CaptchaConfig	-1708
▁LogController	-1709
▁MemberService	-1710
▁MybatisConfig	-1711
▁OpenApiConfig	-1712
▁ProductMapper	-1713
▁SecurityUtils	-1714
▁SmsController	-1715
▁TableMetaData	-1716
▁UserExportDTO	-1717
▁UserImportDTO	-1718
▁UserProfileVO	-1719
▁allowedValues	-1720
▁authenticated	-1721
▁buildMenuTree	-1722
▁collationName	-1723
▁columnComment	-1724
▁configService	-1725
▁createDefault	-1726
▁defaultConfig	-1727
▁deleteNotices	-1728
▁deptConverter	-1729
▁dictConverter	-1730
▁encryptedData	-1731
▁excludeTables	-1732
▁executionTime	-1733
▁expireSeconds	-1734
▁formatMessage	-1735
▁generateToken	-1736
▁getConfigForm	-1737
▁getNoticeForm	-1738
▁getNoticePage	-1739
▁getVisitStats	-1740
▁getVisitTrend	-1741
▁handleIllegal	-1742
▁menuConverter	-1743
▁noticeService	-1744
▁publishNotice	-1745
▁publishStatus	-1746
▁publisherName	-1747
▁recurDeptList	-1748
▁redisTemplate	-1749
▁resetPassword	-1750
▁roleConverter	-1751
▁saveUserRoles	-1752
▁sendDictEvent	-1753
▁sendEmailCode	-1754
▁setRedisValue	-1755
▁targetUserIds	-1756
▁unsecuredUrls	-1757
▁userConnected	-1758
▁userConverter	-1759
▁validateToken	-1760
▁wxMiniAppCode	-1761
PlusInterceptor	-1762
rammarException	-1763
▁AuthController	-1764
▁Authentication	-1765
▁CaffeineConfig	-1766
▁ColumnMetaData	-1767
▁CurrentUserDTO	-1768
▁DeptController	-1769
▁DictController	-1770
▁DictItemPageVO	-1771
▁FieldValidator	-1772
▁FileController	-1773
▁LogServiceImpl	-1774
▁MailController	-1775
▁MailProperties	-1776
▁MenuController	-1777
▁MyAccessDenied	-1778
▁NoticeDetailVO	-1779
▁ProductService	-1780
▁RoleController	-1781
▁SecurityConfig	-1782
▁UserController	-1783
▁UserSessionDTO	-1784
▁adminAddresses	-1785
▁authentication	-1786
▁backendAppName	-1787
▁bindUserOpenId	-1788
▁browserVersion	-1789
▁changePassword	-1790
▁codegenService	-1791
▁convertMessage	-1792
▁databaseMapper	-1793
▁deleteDictItem	-1794
▁genFieldConfig	-1795
▁getAuthorities	-1796
▁getCodeContent	-1797
▁getCredentials	-1798
▁getDeptOptions	-1799
▁getOnlineUsers	-1800
▁getRoleMenuIds	-1801
▁getTokenFromRe	-1802
▁getUserProfile	-1803
▁handleSingleDe	-1804
▁interfereCount	-1805
▁lastActiveTime	-1806
▁mailProperties	-1807
▁redissonClient	-1808
▁sendMobileCode	-1809
▁shouldFilterOb	-1810
▁tableCollation	-1811
▁updateChildren	-1812
▁updateDictItem	-1813
▁wxMiniAppPhone	-1814
ValidationFilter	-1815
enConfigFormData	-1816
usinessException	-1817
yMobileAndOpenId	-1818
▁AuthServiceImpl	-1819
▁DeptServiceImpl	-1820
▁DictServiceImpl	-1821
▁EmailUpdateForm	-1822
▁MailServiceImpl	-1823
▁MenuServiceImpl	-1824
▁OrderController	-1825
▁RoleServiceImpl	-1826
▁UserProfileForm	-1827
▁UserServiceImpl	-1828
▁aliyunOssClient	-1829
▁configConverter	-1830
▁confirmPassword	-1831
▁convertArgument	-1832
▁dataScopeFilter	-1833
▁deleteDictItems	-1834
▁dictItemService	-1835
▁frontendAppName	-1836
▁getDictItemForm	-1837
▁getDictItemPage	-1838
▁getMyNoticePage	-1839
▁getNoticeDetail	-1840
▁getSystemConfig	-1841
▁getUserFormData	-1842
▁handleException	-1843
▁invalidateToken	-1844
▁listDeptOptions	-1845
▁listExportUsers	-1846
▁listMenuOptions	-1847
▁listRoleOptions	-1848
▁listUserOptions	-1849
▁noticeConverter	-1850
▁passwordEncoder	-1851
▁responseContent	-1852
▁roleMenuService	-1853
▁templateConfigs	-1854
▁userRoleService	-1855
Ad	-1856
Cu	-1857
Di	-1858
Do	-1859
Li	-1860
MA	-1861
NF	-1862
On	-1863
PA	-1864
Pa	-1865
RM	-1866
SO	-1867
TA	-1868
TO	-1869
Ty	-1870
UI	-1871
UR	-1872
aC	-1873
aO	-1874
aP	-1875
am	-1876
ap	-1877
bS	-1878
ba	-1879
bo	-1880
bu	-1881
cr	-1882
cy	-1883
dA	-1884
dE	-1885
dF	-1886
dP	-1887
dT	-1888
di	-1889
dl	-1890
dp	-1891
eI	-1892
eN	-1893
eO	-1894
eP	-1895
eR	-1896
eU	-1897
ei	-1898
ex	-1899
dV	-1900
ep	-1901
ff	-1902
ft	-1903
gS	-1904
gm	-1905
hA	-1906
hS	-1907
hT	-1908
hm	-1909
iA	-1910
ir	-1911
kI	-1912
kn	-1913
lE	-1914
lO	-1915
lV	-1916
la	-1917
lt	-1918
mC	-1919
mP	-1920
ma	-1921
nE	-1922
nF	-1923
nI	-1924
nM	-1925
nR	-1926
nU	-1927
nV	-1928
nc	-1929
ng	-1930
nt	-1931
oU	-1932
oa	-1933
oo	-1934
op	-1935
os	-1936
ov	-1937
pC	-1938
pI	-1939
pS	-1940
pd	-1941
ph	-1942
pu	-1943
rC	-1944
rE	-1945
rL	-1946
rO	-1947
rP	-1948
rU	-1949
ri	-1950
rn	-1951
rr	-1952
sF	-1953
sT	-1954
sc	-1955
sm	-1956
su	-1957
tA	-1958
tF	-1959
tT	-1960
tV	-1961
tc	-1962
tl	-1963
tm	-1964
ts	-1965
tt	-1966
uL	-1967
uS	-1968
up	-1969
uv	-1970
vC	-1971
vL	-1972
va	-1973
vc	-1974
wa	-1975
wn	-1976
ws	-1977
wx	-1978
xe	-1979
xp	-1980
xx	-1981
yC	-1982
yI	-1983
yR	-1984
yT	-1985
yV	-1986
▁V	-1987
▁h	-1988
ATE	-1989
AUL	-1990
Cur	-1991
Def	-1992
Det	-1993
Dom	-1994
Min	-1995
OrC	-1996
Pas	-1997
RAM	-1998
RCE	-1999
OD	-2000
dS	-2001
da	-2002
eF	-2003
eM	-2004
gr	-2005
lo	-2006
pE	-2007
pv	-2008
rS	-2009
sE	-2010
tR	-2011
tU	-2012
uI	-2013
yS	-2014
yb	-2015
▁I	-2016
ATC	-2017
Exc	-2018
Rat	-2019
Red	-2020
Ref	-2021
Rep	-2022
Roo	-2023
Tok	-2024
UES	-2025
aMa	-2026
adA	-2027
adF	-2028
alO	-2029
all	-2030
apt	-2031
atR	-2032
atS	-2033
atU	-2034
ato	-2035
ayU	-2036
bas	-2037
bro	-2038
chm	-2039
dCo	-2040
ddr	-2041
dic	-2042
dle	-2043
dth	-2044
eCo	-2045
eDe	-2046
eMa	-2047
eRo	-2048
eat	-2049
elR	-2050
emp	-2051
enC	-2052
enI	-2053
enM	-2054
erA	-2055
erC	-2056
erD	-2057
erI	-2058
erN	-2059
erP	-2060
erR	-2061
erS	-2062
erU	-2063
erc	-2064
esh	-2065
esp	-2066
esu	-2067
etM	-2068
etP	-2069
eyS	-2070
eyV	-2071
fil	-2072
fon	-2073
geC	-2074
geE	-2075
geI	-2076
geN	-2077
geP	-2078
gis	-2079
gle	-2080
gro	-2081
hCa	-2082
hRo	-2083
hSt	-2084
han	-2085
har	-2086
hec	-2087
hen	-2088
her	-2089
hon	-2090
ica	-2091
ife	-2092
ilU	-2093
ill	-2094
inv	-2095
isC	-2096
isN	-2097
iss	-2098
iti	-2099
be	-2100
br	-2101
iC	-2102
nv	-2103
oR	-2104
pa	-2105
rF	-2106
rR	-2107
sg	-2108
yO	-2109
LSy	-2110
Lis	-2111
Mes	-2112
Rea	-2113
ces	-2114
cry	-2115
dRo	-2116
def	-2117
enc	-2118
erF	-2119
gin	-2120
isE	-2121
ive	-2122
ket	-2123
key	-2124
lat	-2125
leM	-2126
led	-2127
leg	-2128
les	-2129
let	-2130
lic	-2131
mar	-2132
men	-2133
mob	-2134
msA	-2135
mum	-2136
ndO	-2137
nlo	-2138
oAl	-2139
oCl	-2140
oSt	-2141
ogP	-2142
ogo	-2143
oin	-2144
omD	-2145
onE	-2146
onF	-2147
onM	-2148
onP	-2149
onS	-2150
onU	-2151
onV	-2152
ons	-2153
ope	-2154
ora	-2155
oun	-2156
pId	-2157
pat	-2158
peF	-2159
peL	-2160
piC	-2161
por	-2162
ppS	-2163
ppl	-2164
ptL	-2165
ptO	-2166
ptT	-2167
ptV	-2168
ptc	-2169
rEx	-2170
ram	-2171
rea	-2172
rec	-2173
ref	-2174
rep	-2175
rim	-2176
roa	-2177
roc	-2178
rod	-2179
rov	-2180
sAc	-2181
sCl	-2182
sen	-2183
sig	-2184
sin	-2185
tAr	-2186
tEx	-2187
taO	-2188
teP	-2189
teV	-2190
tex	-2191
thA	-2192
tic	-2193
tit	-2194
tiv	-2195
tok	-2196
tre	-2197
ubm	-2198
uck	-2199
Au	-2200
Mo	-2201
Op	-2202
TI	-2203
bs	-2204
dM	-2205
dt	-2206
hC	-2207
hR	-2208
lU	-2209
mT	-2210
rk	-2211
rv	-2212
sN	-2213
sR	-2214
uC	-2215
NAM	-2216
esI	-2217
geM	-2218
iel	-2219
log	-2220
min	-2221
ndC	-2222
oma	-2223
onf	-2224
rls	-2225
uil	-2226
unF	-2227
unO	-2228
unS	-2229
ust	-2230
vCo	-2231
vat	-2232
vok	-2233
xEr	-2234
xec	-2235
xim	-2236
yCo	-2237
yse	-2238
yun	-2239
▁DE	-2240
▁De	-2241
▁Ex	-2242
▁Fi	-2243
▁Ma	-2244
▁Me	-2245
▁Or	-2246
▁Sy	-2247
▁af	-2248
▁be	-2249
▁ci	-2250
▁ke	-2251
▁ms	-2252
▁no	-2253
▁ol	-2254
▁pa	-2255
▁sa	-2256
▁se	-2257
▁sh	-2258
▁sm	-2259
▁ur	-2260
▁we	-2261
Coll	-2262
Conf	-2263
Cred	-2264
Erro	-2265
IMIT	-2266
Iden	-2267
IfAb	-2268
Leng	-2269
LogA	-2270
Meth	-2271
Pack	-2272
Prin	-2273
Proc	-2274
Read	-2275
Valu	-2276
aCon	-2277
adTi	-2278
ageN	-2279
ageP	-2280
ageS	-2281
ageV	-2282
ailS	-2283
alAr	-2284
alEx	-2285
alid	-2286
aliy	-2287
arEx	-2288
ataS	-2289
ataT	-2290
ateA	-2291
ateC	-2292
ateD	-2293
ateN	-2294
ateR	-2295
ateT	-2296
ateU	-2297
atis	-2298
bleP	-2299
MI	-2300
Ut	-2301
aS	-2302
bC	-2303
gI	-2304
mD	-2305
mu	-2306
nP	-2307
nm	-2308
▁L	-2309
APT	-2310
alu	-2311
bou	-2312
dat	-2313
eRe	-2314
erV	-2315
isP	-2316
isi	-2317
lin	-2318
not	-2319
onI	-2320
rof	-2321
uLa	-2322
Capt	-2323
Repe	-2324
abel	-2325
bles	-2326
cCon	-2327
canP	-2328
cast	-2329
cter	-2330
dCon	-2331
dLog	-2332
dele	-2333
dept	-2334
dict	-2335
disT	-2336
diss	-2337
eLog	-2338
ebSo	-2339
ecte	-2340
eldV	-2341
enMa	-2342
endA	-2343
endE	-2344
endL	-2345
endM	-2346
endN	-2347
entE	-2348
entI	-2349
ents	-2350
enuV	-2351
envi	-2352
erEx	-2353
esIn	-2354
eset	-2355
essD	-2356
essN	-2357
essS	-2358
essT	-2359
esul	-2360
etRe	-2361
fiel	-2362
figu	-2363
form	-2364
gSer	-2365
genF	-2366
gend	-2367
getA	-2368
getD	-2369
getE	-2370
gion	-2371
gist	-2372
heig	-2373
hent	-2374
hild	-2375
iApp	-2376
iCon	-2377
iceC	-2378
iceI	-2379
icon	-2380
ictC	-2381
ictE	-2382
ictI	-2383
ictP	-2384
icti	-2385
idat	-2386
ient	-2387
ilCo	-2388
ileA	-2389
imar	-2390
inDT	-2391
ines	-2392
init	-2393
intC	-2394
ints	-2395
ionE	-2396
ionI	-2397
ionM	-2398
ionT	-2399
DA	-2400
Da	-2401
ie	-2402
lR	-2403
lS	-2404
tu	-2405
yD	-2406
yU	-2407
yp	-2408
Exp	-2409
FAU	-2410
InL	-2411
ats	-2412
bal	-2413
enS	-2414
fer	-2415
ilS	-2416
leI	-2417
leP	-2418
ppP	-2419
reg	-2420
tRo	-2421
tor	-2422
yRo	-2423
▁ne	-2424
AppP	-2425
EFAU	-2426
RMAT	-2427
agin	-2428
alys	-2429
entM	-2430
hSer	-2431
idCo	-2432
imit	-2433
ionN	-2434
ionP	-2435
ionU	-2436
ipal	-2437
itAs	-2438
kage	-2439
lSer	-2440
leCo	-2441
leRe	-2442
leVO	-2443
line	-2444
load	-2445
mCon	-2446
menu	-2447
mess	-2448
mitP	-2449
mmen	-2450
msCa	-2451
oCli	-2452
oFil	-2453
obal	-2454
ogRe	-2455
omis	-2456
onCl	-2457
onen	-2458
onfi	-2459
onse	-2460
orCo	-2461
ordE	-2462
ordU	-2463
ortD	-2464
ortL	-2465
otif	-2466
ouLa	-2467
owed	-2468
pAli	-2469
pCon	-2470
page	-2471
ppCo	-2472
pper	-2473
ppor	-2474
ptCo	-2475
ptId	-2476
rame	-2477
rate	-2478
redU	-2479
rent	-2480
resh	-2481
reso	-2482
road	-2483
rofi	-2484
sSer	-2485
secu	-2486
sent	-2487
serA	-2488
serD	-2489
serF	-2490
serI	-2491
serS	-2492
sern	-2493
sers	-2494
tArg	-2495
tCon	-2496
tLog	-2497
tach	-2498
tail	-2499
FA	-2500
LI	-2501
Os	-2502
Po	-2503
gt	-2504
li	-2505
oA	-2506
rg	-2507
wI	-2508
wV	-2509
yu	-2510
▁N	-2511
▁T	-2512
ebM	-2513
ein	-2514
eng	-2515
leO	-2516
leU	-2517
leV	-2518
nCo	-2519
pti	-2520
sec	-2521
tRe	-2522
xxl	-2523
▁ed	-2524
▁wx	-2525
atRe	-2526
ateM	-2527
bled	-2528
eldS	-2529
erId	-2530
erms	-2531
getS	-2532
lCon	-2533
ngeM	-2534
oper	-2535
ptor	-2536
sage	-2537
serC	-2538
temp	-2539
tems	-2540
terc	-2541
tern	-2542
tial	-2543
tifi	-2544
tils	-2545
tomD	-2546
tomi	-2547
uCon	-2548
uSer	-2549
urit	-2550
usIn	-2551
uteV	-2552
utes	-2553
uthC	-2554
vali	-2555
vata	-2556
veTi	-2557
xLen	-2558
xtAl	-2559
yAnn	-2560
yOnl	-2561
ybat	-2562
ynta	-2563
ypeL	-2564
ysSh	-2565
yste	-2566
▁CAP	-2567
▁Caf	-2568
▁Con	-2569
▁Per	-2570
▁Sec	-2571
▁bin	-2572
▁bus	-2573
▁cur	-2574
▁dat	-2575
▁dom	-2576
▁dow	-2577
▁eng	-2578
▁isN	-2579
▁isP	-2580
▁kni	-2581
▁min	-2582
▁mob	-2583
▁pat	-2584
▁rec	-2585
▁red	-2586
▁ref	-2587
▁rem	-2588
▁rep	-2589
▁rev	-2590
▁rou	-2591
▁sen	-2592
▁ses	-2593
▁sor	-2594
▁tar	-2595
▁tex	-2596
▁tit	-2597
▁tre	-2598
AuthC	-2599
Nu	-2600
Sy	-2601
bi	-2602
gV	-2603
rI	-2604
uO	-2605
yw	-2606
Cre	-2607
Inf	-2608
Str	-2609
Sys	-2610
alP	-2611
alV	-2612
cti	-2613
dep	-2614
der	-2615
inA	-2616
isS	-2617
nMe	-2618
nag	-2619
ode	-2620
onD	-2621
orC	-2622
oul	-2623
rem	-2624
upp	-2625
wid	-2626
wnl	-2627
yId	-2628
Visi	-2629
erat	-2630
getF	-2631
ingT	-2632
leId	-2633
oadT	-2634
ogin	-2635
revi	-2636
user	-2637
wser	-2638
yPro	-2639
▁Ord	-2640
▁Vis	-2641
▁cus	-2642
Chann	-2643
CodeA	-2644
CodeL	-2645
Codeg	-2646
DataP	-2647
DataS	-2648
Depar	-2649
DeptL	-2650
DeptT	-2651
DictL	-2652
Encod	-2653
Encry	-2654
FormD	-2655
ItemO	-2656
Maxim	-2657
OpenA	-2658
OrCha	-2659
Produ	-2660
Profi	-2661
RateL	-2662
RoleF	-2663
RoleI	-2664
RoleO	-2665
RoleP	-2666
Secon	-2667
Secur	-2668
ToAll	-2669
UserA	-2670
UserC	-2671
UserD	-2672
UserF	-2673
UserN	-2674
UserO	-2675
UserR	-2676
UserS	-2677
Usern	-2678
aMail	-2679
ableM	-2680
ables	-2681
alAdd	-2682
alVer	-2683
alues	-2684
arame	-2685
atSub	-2686
ateTi	-2687
bleCo	-2688
cessS	-2689
cheMa	-2690
ckage	-2691
ckend	-2692
cketI	-2693
cketP	-2694
dCode	-2695
dData	-2696
dName	-2697
dRole	-2698
dateR	-2699
aF	-2700
ac	-2701
au	-2702
cc	-2703
dO	-2704
dc	-2705
eS	-2706
mO	-2707
pN	-2708
xL	-2709
xi	-2710
▁R	-2711
Cac	-2712
Cus	-2713
Ext	-2714
aly	-2715
ati	-2716
cal	-2717
fro	-2718
ien	-2719
mCo	-2720
meF	-2721
ogA	-2722
reS	-2723
rev	-2724
rin	-2725
set	-2726
Conn	-2727
Phon	-2728
Send	-2729
ache	-2730
ailU	-2731
eldT	-2732
gPro	-2733
geIn	-2734
hCon	-2735
icat	-2736
iceF	-2737
serN	-2738
tify	-2739
▁all	-2740
▁pas	-2741
DictE	-2742
ableP	-2743
dateT	-2744
ddOrd	-2745
degen	-2746
disCa	-2747
eAuth	-2748
eCont	-2749
eDict	-2750
eForm	-2751
eMenu	-2752
ePage	-2753
ePath	-2754
eUser	-2755
earch	-2756
efore	-2757
elRes	-2758
elUti	-2759
eldCo	-2760
ember	-2761
enCon	-2762
endMa	-2763
endVO	-2764
entEx	-2765
entRo	-2766
erCon	-2767
erVal	-2768
ermis	-2769
essEx	-2770
esult	-2771
eySec	-2772
feine	-2773
field	-2774
figId	-2775
files	-2776
gExce	-2777
gPage	-2778
gType	-2779
genFi	-2780
gener	-2781
haPro	-2782
icate	-2783
iceId	-2784
ignor	-2785
ilCon	-2786
ilPro	-2787
ildRo	-2788
ileIn	-2789
ilter	-2790
inAdd	-2791
incip	-2792
indOr	-2793
iness	-2794
ingle	-2795
initi	-2796
ionDT	-2797
ionId	-2798
ionMa	-2799
Ve	-2800
cC	-2801
eC	-2802
go	-2803
ib	-2804
lA	-2805
na	-2806
sP	-2807
▁U	-2808
Dat	-2809
IMI	-2810
Men	-2811
enP	-2812
eri	-2813
ese	-2814
fie	-2815
imi	-2816
inc	-2817
isU	-2818
itP	-2819
lSe	-2820
lus	-2821
onm	-2822
ple	-2823
tMa	-2824
wth	-2825
▁Ro	-2826
▁kn	-2827
▁mo	-2828
Anal	-2829
InRe	-2830
Sess	-2831
empl	-2832
enid	-2833
enuO	-2834
houl	-2835
ince	-2836
rect	-2837
serE	-2838
serV	-2839
terM	-2840
terR	-2841
tity	-2842
valu	-2843
▁Cor	-2844
DictF	-2845
Manag	-2846
cessD	-2847
dDict	-2848
erter	-2849
ingTe	-2850
inval	-2851
irect	-2852
isCon	-2853
isVal	-2854
isher	-2855
istDe	-2856
istEx	-2857
ithAt	-2858
iyunO	-2859
lable	-2860
leIds	-2861
legal	-2862
leteD	-2863
leteF	-2864
lowed	-2865
mCode	-2866
mData	-2867
mPage	-2868
mesta	-2869
meter	-2870
mplat	-2871
msPro	-2872
nForm	-2873
nName	-2874
nable	-2875
nalys	-2876
ndCha	-2877
ndleI	-2878
ndleS	-2879
ngeIn	-2880
nsecu	-2881
oData	-2882
oFile	-2883
oadTe	-2884
ointC	-2885
oints	-2886
okens	-2887
onCli	-2888
onPro	-2889
onSer	-2890
onnec	-2891
oreUr	-2892
ormat	-2893
otApp	-2894
otalP	-2895
pAddr	-2896
pList	-2897
perat	-2898
ppSec	-2899
Ra	-2900
bM	-2901
gF	-2902
ga	-2903
ke	-2904
mL	-2905
sD	-2906
sh	-2907
tP	-2908
yF	-2909
Sen	-2910
Tre	-2911
des	-2912
ele	-2913
gEx	-2914
itT	-2915
lve	-2916
owe	-2917
pAl	-2918
reC	-2919
rro	-2920
tCo	-2921
teN	-2922
tif	-2923
tro	-2924
ule	-2925
ull	-2926
veL	-2927
vis	-2928
wVO	-2929
▁ac	-2930
▁di	-2931
▁lo	-2932
▁si	-2933
Coun	-2934
Curr	-2935
Deni	-2936
Subm	-2937
ageL	-2938
ames	-2939
chaV	-2940
dFil	-2941
dler	-2942
eSer	-2943
enuT	-2944
getM	-2945
ildL	-2946
ildr	-2947
ileI	-2948
ityU	-2949
mpor	-2950
ormD	-2951
ptVO	-2952
rend	-2953
▁fil	-2954
▁wid	-2955
Confi	-2956
aseEn	-2957
eTime	-2958
ecret	-2959
enPro	-2960
hStat	-2961
okenT	-2962
pport	-2963
pring	-2964
rDept	-2965
rExce	-2966
reate	-2967
redUr	-2968
reden	-2969
reset	-2970
resul	-2971
romRe	-2972
roper	-2973
sActi	-2974
sForm	-2975
sType	-2976
sUser	-2977
serDe	-2978
serId	-2979
sionU	-2980
sword	-2981
tCont	-2982
tMapp	-2983
tMenu	-2984
tUser	-2985
taxEr	-2986
templ	-2987
terAl	-2988
terMa	-2989
terOr	-2990
terce	-2991
thCon	-2992
thent	-2993
times	-2994
tionD	-2995
tionT	-2996
tiona	-2997
tment	-2998
tomis	-2999
aD	-3000
eD	-3001
gh	-3002
gl	-3003
gu	-3004
hN	-3005
mn	-3006
my	-3007
ne	-3008
oF	-3009
rM	-3010
sI	-3011
tE	-3012
can	-3013
ert	-3014
haF	-3015
haP	-3016
has	-3017
imp	-3018
leE	-3019
leF	-3020
leL	-3021
nel	-3022
ogR	-3023
par	-3024
ppN	-3025
teF	-3026
tta	-3027
und	-3028
uti	-3029
▁Lo	-3030
▁un	-3031
PUti	-3032
atab	-3033
econ	-3034
getN	-3035
getO	-3036
intc	-3037
ired	-3038
isRo	-3039
meta	-3040
nser	-3041
ormC	-3042
reat	-3043
sCli	-3044
sign	-3045
terf	-3046
uild	-3047
▁cit	-3048
▁com	-3049
▁def	-3050
▁inv	-3051
▁tot	-3052
DictI	-3053
Inbou	-3054
dateF	-3055
entId	-3056
gment	-3057
oRole	-3058
pCode	-3059
roadc	-3060
tRole	-3061
tions	-3062
ueryT	-3063
uestP	-3064
uestU	-3065
umLen	-3066
urity	-3067
uteVO	-3068
uthor	-3069
ution	-3070
vList	-3071
value	-3072
wData	-3073
wordE	-3074
wordU	-3075
yAuth	-3076
yCode	-3077
yData	-3078
yntax	-3079
ypeLa	-3080
▁Code	-3081
▁LogA	-3082
▁MyMe	-3083
▁Open	-3084
▁Repe	-3085
▁addr	-3086
▁char	-3087
▁chec	-3088
▁coll	-3089
▁comp	-3090
▁cred	-3091
▁defa	-3092
▁dire	-3093
▁endp	-3094
▁getA	-3095
▁getD	-3096
▁getE	-3097
▁getF	-3098
▁getI	-3099
Im	-3100
bE	-3101
dU	-3102
gR	-3103
hi	-3104
ka	-3105
lP	-3106
mF	-3107
mR	-3108
nN	-3109
nS	-3110
sa	-3111
sw	-3112
yP	-3113
SOU	-3114
alA	-3115
atT	-3116
atu	-3117
deA	-3118
enF	-3119
erE	-3120
erf	-3121
fic	-3122
haV	-3123
ies	-3124
mpE	-3125
nRe	-3126
ock	-3127
onn	-3128
pCo	-3129
rok	-3130
ryP	-3131
sAs	-3132
sor	-3133
uct	-3134
vir	-3135
ARAM	-3136
ageR	-3137
arch	-3138
ateL	-3139
ated	-3140
getL	-3141
getT	-3142
haIn	-3143
terO	-3144
thor	-3145
tore	-3146
▁col	-3147
MenuF	-3148
MenuO	-3149
UserE	-3150
essag	-3151
ndler	-3152
okenF	-3153
table	-3154
terIn	-3155
ument	-3156
▁Mini	-3157
▁envi	-3158
▁gend	-3159
▁getL	-3160
▁getM	-3161
▁getN	-3162
▁getO	-3163
▁getR	-3164
▁getT	-3165
▁getV	-3166
▁glob	-3167
▁grow	-3168
▁hand	-3169
▁heig	-3170
▁isRo	-3171
▁logo	-3172
▁meth	-3173
▁mini	-3174
▁modu	-3175
▁pack	-3176
▁para	-3177
▁pars	-3178
▁pass	-3179
▁prov	-3180
▁repe	-3181
▁reso	-3182
▁resp	-3183
▁stor	-3184
▁toRo	-3185
▁vali	-3186
Absent	-3187
Column	-3188
Contro	-3189
DeptId	-3190
DeptVO	-3191
Device	-3192
DictCo	-3193
DictEv	-3194
EmailU	-3195
Enable	-3196
Encryp	-3197
FileIn	-3198
Identi	-3199
An	-3200
It	-3201
Us	-3202
bm	-3203
ci	-3204
gA	-3205
gs	-3206
oc	-3207
si	-3208
so	-3209
Aro	-3210
Ret	-3211
elU	-3212
ern	-3213
ers	-3214
erv	-3215
fAb	-3216
geV	-3217
ifi	-3218
isT	-3219
leR	-3220
oda	-3221
onN	-3222
pal	-3223
sVO	-3224
tDe	-3225
tab	-3226
tho	-3227
ude	-3228
▁cu	-3229
▁ge	-3230
Pass	-3231
Prop	-3232
ToAl	-3233
Veri	-3234
endD	-3235
endp	-3236
esta	-3237
ictL	-3238
iter	-3239
ityC	-3240
nlin	-3241
ords	-3242
tend	-3243
terF	-3244
yCon	-3245
▁Loc	-3246
▁MyA	-3247
Colum	-3248
DictC	-3249
Secre	-3250
dUser	-3251
eDept	-3252
mitAs	-3253
mpEnd	-3254
ublis	-3255
yOpen	-3256
InForm	-3257
InList	-3258
Listen	-3259
LogFil	-3260
LoginV	-3261
MATTER	-3262
MenuVO	-3263
Messag	-3264
Parame	-3265
Permis	-3266
PointC	-3267
Pointc	-3268
Proper	-3269
Provid	-3270
Refres	-3271
Regist	-3272
RoleCo	-3273
RoleSt	-3274
RouteV	-3275
Single	-3276
SmsLog	-3277
String	-3278
TimeFi	-3279
ToRole	-3280
ToUser	-3281
TokenF	-3282
UserCo	-3283
UserDT	-3284
UserId	-3285
UserIn	-3286
UserRo	-3287
UserSt	-3288
Values	-3289
VisitT	-3290
ackend	-3291
adCode	-3292
adTime	-3293
adUser	-3294
ageCon	-3295
alAddr	-3296
alExce	-3297
alOpen	-3298
aliyun	-3299
NA	-3300
aV	-3301
dr	-3302
ea	-3303
nf	-3304
oD	-3305
sS	-3306
tN	-3307
tS	-3308
adT	-3309
bin	-3310
emb	-3311
ilt	-3312
leA	-3313
leC	-3314
met	-3315
ppn	-3316
pro	-3317
ptF	-3318
ptN	-3319
rat	-3320
til	-3321
ApiC	-3322
Dele	-3323
LogF	-3324
ToSt	-3325
bile	-3326
cryp	-3327
eryT	-3328
gCon	-3329
getI	-3330
meth	-3331
obEx	-3332
resp	-3333
sCon	-3334
▁Res	-3335
▁adm	-3336
▁gro	-3337
▁sig	-3338
▁sta	-3339
Previ	-3340
UserI	-3341
ateDe	-3342
deCon	-3343
evice	-3344
kname	-3345
onent	-3346
reCli	-3347
tionV	-3348
ublic	-3349
uestM	-3350
▁cont	-3351
▁logP	-3352
FormCa	-3353
ameter	-3354
aptcha	-3355
atMess	-3356
atUser	-3357
ateCon	-3358
ationE	-3359
ationF	-3360
ationN	-3361
ationT	-3362
aveLog	-3363
bleCom	-3364
ccessD	-3365
celRes	-3366
celUti	-3367
cessEx	-3368
cessin	-3369
cheMan	-3370
dUsers	-3371
dateDe	-3372
dation	-3373
ddMenu	-3374
eepAli	-3375
eldVal	-3376
enTree	-3377
enable	-3378
endLog	-3379
entifi	-3380
ention	-3381
entsTo	-3382
enuCon	-3383
eption	-3384
erCont	-3385
erList	-3386
erMapp	-3387
erName	-3388
erUser	-3389
erateA	-3390
erator	-3391
ersion	-3392
erties	-3393
ervice	-3394
etMess	-3395
etName	-3396
ewData	-3397
eyword	-3398
figCon	-3399
CA	-3400
Fo	-3401
ST	-3402
Va	-3403
ev	-3404
gC	-3405
gE	-3406
lC	-3407
ly	-3408
rN	-3409
rd	-3410
rf	-3411
tI	-3412
tL	-3413
uF	-3414
ATT	-3415
alF	-3416
ens	-3417
erM	-3418
for	-3419
ger	-3420
ilP	-3421
inV	-3422
isc	-3423
nor	-3424
nti	-3425
ste	-3426
tat	-3427
tot	-3428
vic	-3429
▁on	-3430
Prod	-3431
eine	-3432
essa	-3433
iceL	-3434
inCo	-3435
ionF	-3436
ppId	-3437
sPro	-3438
teRo	-3439
thAt	-3440
tice	-3441
▁alw	-3442
▁isS	-3443
▁isV	-3444
OURCE	-3445
Polic	-3446
RoleS	-3447
alCon	-3448
aseMa	-3449
inser	-3450
isten	-3451
nType	-3452
otalU	-3453
penid	-3454
pload	-3455
▁exec	-3456
▁isSh	-3457
Author	-3458
Delete	-3459
Execut	-3460
Tokens	-3461
ential	-3462
entity	-3463
figVal	-3464
fyCode	-3465
genCon	-3466
genPro	-3467
hToken	-3468
iceCon	-3469
ictIte	-3470
iction	-3471
idator	-3472
ignore	-3473
ilCode	-3474
ilCont	-3475
import	-3476
inAddr	-3477
iniApp	-3478
ionDTO	-3479
ionIds	-3480
ionPro	-3481
isUser	-3482
isible	-3483
ission	-3484
itStat	-3485
lation	-3486
leCode	-3487
leCont	-3488
leExce	-3489
leForm	-3490
leList	-3491
leMenu	-3492
leName	-3493
lePage	-3494
lumnMe	-3495
mmence	-3496
msAuth	-3497
msCont	-3498
msForm	-3499
OR	-3500
Sm	-3501
Up	-3502
bl	-3503
co	-3504
eL	-3505
fA	-3506
sC	-3507
tC	-3508
tD	-3509
to	-3510
wo	-3511
Caf	-3512
Cor	-3513
Sor	-3514
deT	-3515
dge	-3516
mRe	-3517
msC	-3518
nes	-3519
onT	-3520
tar	-3521
teD	-3522
▁gl	-3523
▁ty	-3524
▁up	-3525
Samp	-3526
auth	-3527
dVal	-3528
ewVO	-3529
figs	-3530
getP	-3531
iceP	-3532
isDe	-3533
late	-3534
leEx	-3535
nter	-3536
owIn	-3537
pire	-3538
▁Mob	-3539
▁fon	-3540
▁fro	-3541
▁por	-3542
▁web	-3543
FormC	-3544
MenuV	-3545
Menus	-3546
astAc	-3547
dateC	-3548
hange	-3549
nMenu	-3550
oUser	-3551
onfig	-3552
ptCon	-3553
viceI	-3554
▁getP	-3555
arExce	-3556
ension	-3557
fileVO	-3558
leteDe	-3559
ndleRe	-3560
obSamp	-3561
obileU	-3562
ogCont	-3563
ogPage	-3564
okenMa	-3565
oneLog	-3566
online	-3567
ontend	-3568
orCode	-3569
ortDTO	-3570
oticeD	-3571
oticeM	-3572
oticeP	-3573
otices	-3574
pdateC	-3575
pdateF	-3576
pdateT	-3577
penApi	-3578
ppCode	-3579
ppName	-3580
ppname	-3581
pports	-3582
ptCode	-3583
ptCont	-3584
ptForm	-3585
ptName	-3586
ptchaV	-3587
ration	-3588
result	-3589
rowser	-3590
rtDate	-3591
seCont	-3592
serSer	-3593
serVer	-3594
serial	-3595
socket	-3596
tToken	-3597
taData	-3598
teMenu	-3599
Ap	-3600
Fr	-3601
Pv	-3602
RA	-3603
TE	-3604
cu	-3605
eT	-3606
eV	-3607
gT	-3608
gi	-3609
if	-3610
io	-3611
lF	-3612
lp	-3613
nA	-3614
of	-3615
rD	-3616
tO	-3617
tr	-3618
uc	-3619
xE	-3620
▁P	-3621
Pat	-3622
Ses	-3623
ara	-3624
arc	-3625
dOr	-3626
deg	-3627
ena	-3628
erL	-3629
eth	-3630
hil	-3631
hos	-3632
inD	-3633
kIp	-3634
onC	-3635
ond	-3636
pha	-3637
teM	-3638
tes	-3639
ven	-3640
▁as	-3641
▁ba	-3642
▁em	-3643
▁pu	-3644
aile	-3645
bCon	-3646
eCon	-3647
enFi	-3648
hand	-3649
host	-3650
ilVO	-3651
ineS	-3652
ngeE	-3653
open	-3654
serR	-3655
seri	-3656
▁Onl	-3657
MailS	-3658
ction	-3659
dMenu	-3660
entIn	-3661
entit	-3662
erSer	-3663
eyVal	-3664
penId	-3665
pires	-3666
tCode	-3667
viceL	-3668
▁Curr	-3669
alFile	-3670
lumnCo	-3671
teName	-3672
teRole	-3673
teUser	-3674
terAll	-3675
terMax	-3676
terReg	-3677
ternal	-3678
thRate	-3679
tionTi	-3680
tionVO	-3681
tionar	-3682
uccess	-3683
ucketI	-3684
ucketP	-3685
uestMe	-3686
uestUr	-3687
umData	-3688
unFile	-3689
urDept	-3690
ustomD	-3691
ustomi	-3692
uthCon	-3693
uthent	-3694
veDept	-3695
veDict	-3696
veRole	-3697
veTime	-3698
verter	-3699
Em	-3700
So	-3701
aI	-3702
aT	-3703
ai	-3704
dC	-3705
eA	-3706
gP	-3707
gn	-3708
sV	-3709
wD	-3710
xM	-3711
COD	-3712
Sin	-3713
alw	-3714
dem	-3715
eni	-3716
eso	-3717
eta	-3718
geR	-3719
ilV	-3720
inC	-3721
isD	-3722
isV	-3723
itA	-3724
lCo	-3725
leS	-3726
ned	-3727
nta	-3728
omi	-3729
ptI	-3730
reM	-3731
rit	-3732
ses	-3733
try	-3734
umL	-3735
wIn	-3736
▁Ch	-3737
Aliy	-3738
Conv	-3739
MATT	-3740
endV	-3741
figN	-3742
getR	-3743
iceM	-3744
iceS	-3745
isCa	-3746
itSt	-3747
ller	-3748
penA	-3749
ramm	-3750
▁Cur	-3751
▁Myb	-3752
▁dem	-3753
▁isE	-3754
Datab	-3755
DictP	-3756
hould	-3757
mailU	-3758
tDate	-3759
tDict	-3760
tName	-3761
terRe	-3762
valid	-3763
xtAlp	-3764
▁noti	-3765
UserAg	-3766
ddRole	-3767
eToken	-3768
notice	-3769
onment	-3770
reMess	-3771
viewVO	-3772
wxMini	-3773
yCount	-3774
ybatis	-3775
ysUser	-3776
▁Caffe	-3777
▁DictE	-3778
▁LogAs	-3779
▁RoleP	-3780
▁Secur	-3781
▁UserI	-3782
▁UserO	-3783
▁after	-3784
▁avata	-3785
▁caffe	-3786
▁chars	-3787
▁check	-3788
▁colum	-3789
▁confi	-3790
▁dataS	-3791
▁datab	-3792
▁doAro	-3793
▁exclu	-3794
▁getCo	-3795
▁getDe	-3796
▁getEn	-3797
▁getIp	-3798
▁getLo	-3799
Le	-3800
ON	-3801
PU	-3802
RC	-3803
UL	-3804
ca	-3805
dL	-3806
mi	-3807
nC	-3808
nb	-3809
pn	-3810
pr	-3811
uT	-3812
wi	-3813
xc	-3814
▁F	-3815
▁O	-3816
atM	-3817
ayP	-3818
den	-3819
eEn	-3820
eig	-3821
est	-3822
geS	-3823
hor	-3824
leD	-3825
lle	-3826
mat	-3827
ndp	-3828
onv	-3829
uId	-3830
umn	-3831
▁CA	-3832
▁ig	-3833
adAl	-3834
alCo	-3835
ecut	-3836
figF	-3837
figV	-3838
genP	-3839
iceD	-3840
ield	-3841
ileU	-3842
kend	-3843
oreA	-3844
ormT	-3845
terA	-3846
terI	-3847
▁exc	-3848
DeptO	-3849
chaIn	-3850
disTe	-3851
eRole	-3852
enSer	-3853
hRole	-3854
mForm	-3855
msLog	-3856
nload	-3857
oAuth	-3858
odayP	-3859
serRo	-3860
ssign	-3861
terSt	-3862
token	-3863
unSms	-3864
▁stat	-3865
ateUti	-3866
batisP	-3867
enCont	-3868
getCon	-3869
hCache	-3870
terFil	-3871
ysShow	-3872
▁Mybat	-3873
▁UserE	-3874
▁faile	-3875
▁getMa	-3876
▁getRe	-3877
▁getRo	-3878
▁initi	-3879
▁inser	-3880
▁isNul	-3881
▁isVal	-3882
▁logRe	-3883
▁mailS	-3884
▁pageN	-3885
▁pageS	-3886
▁regis	-3887
▁resol	-3888
▁roleN	-3889
▁secur	-3890
▁sendE	-3891
▁sendM	-3892
▁sendN	-3893
▁sendO	-3894
▁sendS	-3895
▁sendT	-3896
▁userD	-3897
▁userO	-3898
▁usern	-3899
Cr	-3900
ME	-3901
PT	-3902
TT	-3903
ab	-3904
dD	-3905
dR	-3906
eg	-3907
nD	-3908
nL	-3909
nO	-3910
no	-3911
pP	-3912
rV	-3913
NFI	-3914
alU	-3915
ars	-3916
eVO	-3917
enA	-3918
enT	-3919
ept	-3920
erm	-3921
gum	-3922
ils	-3923
itS	-3924
ona	-3925
tac	-3926
▁da	-3927
aSer	-3928
ateF	-3929
ecre	-3930
entR	-3931
enus	-3932
hain	-3933
ices	-3934
ictT	-3935
ider	-3936
mSer	-3937
mple	-3938
otat	-3939
pect	-3940
pted	-3941
reCl	-3942
role	-3943
vent	-3944
▁kee	-3945
▁mod	-3946
▁nic	-3947
MetaO	-3948
geCon	-3949
ortEx	-3950
ultFi	-3951
veLog	-3952
yName	-3953
▁curr	-3954
TableP	-3955
adFile	-3956
disVal	-3957
e	-3958
▁	-3959
t	-3960
i	-3961
r	-3962
o	-3963
n	-3964
a	-3965
s	-3966
l	-3967
d	-3968
c	-3969
g	-3970
p	-3971
u	-3972
m	-3973
C	-3974
v	-3975
h	-3976
S	-3977
P	-3978
f	-3979
y	-3980
M	-3981
D	-3982
I	-3983
A	-3984
U	-3985
T	-3986
b	-3987
O	-3988
R	-3989
F	-3990
N	-3991
x	-3992
k	-3993
E	-3994
L	-3995
V	-3996
w	-3997
